


unsigned char autoencoder_model_data[] = {
   0x1c, 0x00, 0x00, 0x00, 0x54, 0x46, 0x4c, 0x33, 0x14, 0x00, 0x20, 0x00,
  0x1c, 0x00, 0x18, 0x00, 0x14, 0x00, 0x10, 0x00, 0x0c, 0x00, 0x00, 0x00,
  0x08, 0x00, 0x04, 0x00, 0x14, 0x00, 0x00, 0x00, 0x1c, 0x00, 0x00, 0x00,
  0x90, 0x00, 0x00, 0x00, 0xe8, 0x00, 0x00, 0x00, 0x4c, 0x0c, 0x00, 0x00,
  0x5c, 0x0c, 0x00, 0x00, 0x84, 0x12, 0x00, 0x00, 0x03, 0x00, 0x00, 0x00,
  0x01, 0x00, 0x00, 0x00, 0x10, 0x00, 0x00, 0x00, 0x00, 0x00, 0x0a, 0x00,
  0x10, 0x00, 0x0c, 0x00, 0x08, 0x00, 0x04, 0x00, 0x0a, 0x00, 0x00, 0x00,
  0x0c, 0x00, 0x00, 0x00, 0x1c, 0x00, 0x00, 0x00, 0x38, 0x00, 0x00, 0x00,
  0x0f, 0x00, 0x00, 0x00, 0x73, 0x65, 0x72, 0x76, 0x69, 0x6e, 0x67, 0x5f,
  0x64, 0x65, 0x66, 0x61, 0x75, 0x6c, 0x74, 0x00, 0x01, 0x00, 0x00, 0x00,
  0x04, 0x00, 0x00, 0x00, 0x98, 0xff, 0xff, 0xff, 0x0c, 0x00, 0x00, 0x00,
  0x04, 0x00, 0x00, 0x00, 0x07, 0x00, 0x00, 0x00, 0x64, 0x65, 0x6e, 0x73,
  0x65, 0x5f, 0x33, 0x00, 0x01, 0x00, 0x00, 0x00, 0x04, 0x00, 0x00, 0x00,
  0x66, 0xf4, 0xff, 0xff, 0x04, 0x00, 0x00, 0x00, 0x0b, 0x00, 0x00, 0x00,
  0x64, 0x65, 0x6e, 0x73, 0x65, 0x5f, 0x69, 0x6e, 0x70, 0x75, 0x74, 0x00,
  0x02, 0x00, 0x00, 0x00, 0x34, 0x00, 0x00, 0x00, 0x04, 0x00, 0x00, 0x00,
  0xdc, 0xff, 0xff, 0xff, 0x0f, 0x00, 0x00, 0x00, 0x04, 0x00, 0x00, 0x00,
  0x13, 0x00, 0x00, 0x00, 0x43, 0x4f, 0x4e, 0x56, 0x45, 0x52, 0x53, 0x49,
  0x4f, 0x4e, 0x5f, 0x4d, 0x45, 0x54, 0x41, 0x44, 0x41, 0x54, 0x41, 0x00,
  0x08, 0x00, 0x0c, 0x00, 0x08, 0x00, 0x04, 0x00, 0x08, 0x00, 0x00, 0x00,
  0x0e, 0x00, 0x00, 0x00, 0x04, 0x00, 0x00, 0x00, 0x13, 0x00, 0x00, 0x00,
  0x6d, 0x69, 0x6e, 0x5f, 0x72, 0x75, 0x6e, 0x74, 0x69, 0x6d, 0x65, 0x5f,
  0x76, 0x65, 0x72, 0x73, 0x69, 0x6f, 0x6e, 0x00, 0x10, 0x00, 0x00, 0x00,
  0x60, 0x0b, 0x00, 0x00, 0x58, 0x0b, 0x00, 0x00, 0x20, 0x0b, 0x00, 0x00,
  0x98, 0x0a, 0x00, 0x00, 0x60, 0x0a, 0x00, 0x00, 0x48, 0x0a, 0x00, 0x00,
  0xd8, 0x05, 0x00, 0x00, 0x78, 0x05, 0x00, 0x00, 0x18, 0x05, 0x00, 0x00,
  0xa8, 0x00, 0x00, 0x00, 0xa0, 0x00, 0x00, 0x00, 0x98, 0x00, 0x00, 0x00,
  0x90, 0x00, 0x00, 0x00, 0x88, 0x00, 0x00, 0x00, 0x68, 0x00, 0x00, 0x00,
  0x04, 0x00, 0x00, 0x00, 0x1e, 0xf5, 0xff, 0xff, 0x04, 0x00, 0x00, 0x00,
  0x54, 0x00, 0x00, 0x00, 0x0c, 0x00, 0x00, 0x00, 0x08, 0x00, 0x0e, 0x00,
  0x08, 0x00, 0x04, 0x00, 0x08, 0x00, 0x00, 0x00, 0x10, 0x00, 0x00, 0x00,
  0x24, 0x00, 0x00, 0x00, 0x00, 0x00, 0x06, 0x00, 0x08, 0x00, 0x04, 0x00,
  0x06, 0x00, 0x00, 0x00, 0x04, 0x00, 0x00, 0x00, 0x00, 0x00, 0x00, 0x00,
  0x00, 0x00, 0x0a, 0x00, 0x10, 0x00, 0x0c, 0x00, 0x08, 0x00, 0x04, 0x00,
  0x0a, 0x00, 0x00, 0x00, 0x01, 0x00, 0x00, 0x00, 0x02, 0x00, 0x00, 0x00,
  0x04, 0x00, 0x00, 0x00, 0x05, 0x00, 0x00, 0x00, 0x32, 0x2e, 0x39, 0x2e,
  0x32, 0x00, 0x00, 0x00, 0x7e, 0xf5, 0xff, 0xff, 0x04, 0x00, 0x00, 0x00,
  0x10, 0x00, 0x00, 0x00, 0x31, 0x2e, 0x35, 0x2e, 0x30, 0x00, 0x00, 0x00,
  0x00, 0x00, 0x00, 0x00, 0x00, 0x00, 0x00, 0x00, 0x50, 0xef, 0xff, 0xff,
  0x54, 0xef, 0xff, 0xff, 0x58, 0xef, 0xff, 0xff, 0x5c, 0xef, 0xff, 0xff,
  0xaa, 0xf5, 0xff, 0xff, 0x04, 0x00, 0x00, 0x00, 0x60, 0x04, 0x00, 0x00,
  0x2b, 0x60, 0x41, 0xbe, 0x4f, 0x67, 0xbb, 0x3e, 0xc4, 0x2e, 0xd6, 0xbe,
  0x28, 0xc2, 0xc2, 0xbd, 0xbe, 0x2b, 0xea, 0x3d, 0x61, 0x74, 0x20, 0xbf,
  0x36, 0x91, 0x84, 0xbe, 0xbe, 0xb2, 0x97, 0x3d, 0xcb, 0x9a, 0xc7, 0xbe,
  0x7e, 0xaa, 0x98, 0xbe, 0x1a, 0xd1, 0xa4, 0xbd, 0x56, 0x9c, 0x30, 0x3e,
  0x33, 0x04, 0x9b, 0x3d, 0xb0, 0xa4, 0xc6, 0x3c, 0xc6, 0xe2, 0x91, 0x3e,
  0x53, 0xea, 0xeb, 0x3d, 0x18, 0x03, 0x34, 0xbd, 0x7c, 0x5b, 0x49, 0xbf,
  0x9f, 0x36, 0xa3, 0xbe, 0x45, 0x45, 0xea, 0x3d, 0x35, 0x54, 0x4e, 0x3e,
  0x00, 0xf9, 0x33, 0xbb, 0x28, 0xf1, 0xd9, 0xbe, 0x94, 0x0a, 0x97, 0xbd,
  0x81, 0xe9, 0x93, 0xbc, 0xae, 0x7e, 0x03, 0x3e, 0x6b, 0xed, 0xa6, 0x3e,
  0x0d, 0x5c, 0xb5, 0xbc, 0x50, 0xfb, 0x08, 0xbe, 0xa4, 0x6c, 0xd4, 0xbe,
  0xa2, 0xbf, 0xc3, 0x3e, 0x28, 0x06, 0x95, 0xbd, 0x68, 0x7e, 0x98, 0x3e,
  0x00, 0xb0, 0x8e, 0x3a, 0x62, 0x03, 0x4d, 0x3f, 0x92, 0x89, 0x8c, 0x3e,
  0x94, 0x45, 0xd4, 0xbd, 0xdd, 0x5c, 0x89, 0xbe, 0x1a, 0x04, 0x6a, 0x3e,
  0xa3, 0x63, 0x0a, 0xbd, 0x60, 0xc3, 0x67, 0x3e, 0x91, 0x5e, 0xbc, 0xbe,
  0x18, 0xec, 0x7e, 0x3e, 0x00, 0x72, 0x5f, 0x3d, 0xe5, 0x57, 0x16, 0x3f,
  0x5f, 0xe5, 0x93, 0x3d, 0x52, 0x29, 0x76, 0x3e, 0xdb, 0xe8, 0x3b, 0xbe,
  0xf1, 0x33, 0x39, 0xbe, 0xb6, 0x94, 0x23, 0x3d, 0xed, 0xa1, 0xee, 0x3d,
  0xf2, 0xbe, 0x1d, 0xbe, 0x7e, 0x8f, 0x29, 0x3e, 0x0f, 0x6e, 0xb4, 0x3e,
  0x93, 0x8d, 0x34, 0x3e, 0x64, 0x02, 0xc8, 0x3e, 0x46, 0xf3, 0x09, 0x3e,
  0x5e, 0x45, 0x95, 0x3e, 0x5b, 0x4b, 0x3f, 0xbe, 0x47, 0x2c, 0x6f, 0xbe,
  0x14, 0x15, 0x66, 0x3b, 0x80, 0x38, 0x25, 0xbc, 0x6f, 0x8e, 0x7b, 0x3e,
  0x40, 0x48, 0x7f, 0xbd, 0xa7, 0xe0, 0x9f, 0x3e, 0x4b, 0xca, 0x35, 0x3f,
  0xf8, 0xec, 0xc5, 0xbd, 0x1c, 0xca, 0x10, 0x3e, 0x46, 0x21, 0x17, 0xbe,
  0xe4, 0x15, 0x81, 0xbe, 0x3f, 0x06, 0x85, 0x3e, 0x32, 0xde, 0x46, 0x3e,
  0x68, 0x4e, 0xdc, 0x3e, 0x1b, 0xd9, 0xaf, 0xbe, 0xa4, 0x2b, 0xa4, 0xbd,
  0xfb, 0xd2, 0xda, 0x3e, 0x1c, 0x86, 0xc4, 0xbd, 0xbf, 0x75, 0x77, 0x3e,
  0xce, 0x5c, 0x7a, 0x3e, 0xec, 0x3f, 0x9e, 0x3e, 0xe8, 0x3d, 0x51, 0x3e,
  0xcd, 0xf8, 0x83, 0xbe, 0x9b, 0x30, 0x7c, 0x3e, 0xf0, 0x1d, 0xd3, 0xbd,
  0x4c, 0xe8, 0x93, 0xbe, 0x16, 0x3a, 0x05, 0xbd, 0x94, 0x4f, 0xfb, 0x3d,
  0xc4, 0x9d, 0x0e, 0x3f, 0x11, 0x63, 0x84, 0x3e, 0xa1, 0xe7, 0xb1, 0xbe,
  0xfc, 0x76, 0xbf, 0xbc, 0x21, 0x00, 0x8f, 0x3e, 0xb8, 0xab, 0x4f, 0x3e,
  0x03, 0xa4, 0x9f, 0xbe, 0x67, 0x3b, 0x11, 0xbf, 0xd1, 0x1e, 0x81, 0x3e,
  0xd0, 0x2b, 0x91, 0x3d, 0x03, 0x97, 0x3b, 0x3f, 0x68, 0xd4, 0x81, 0xbd,
  0xdb, 0x44, 0x9f, 0xbd, 0x19, 0x0a, 0xa9, 0x3e, 0xc9, 0x2f, 0xc1, 0x3e,
  0xeb, 0x5b, 0x15, 0x3e, 0x06, 0xdb, 0x6b, 0x3e, 0x88, 0xfd, 0x36, 0xbf,
  0xe3, 0xa7, 0x60, 0xbd, 0xf0, 0xfb, 0xb6, 0x3c, 0xd3, 0x00, 0x11, 0x3f,
  0x90, 0xbf, 0xf9, 0x3c, 0xcf, 0xc2, 0x45, 0xbf, 0xbd, 0x09, 0x02, 0xbd,
  0xef, 0xb0, 0x24, 0xbe, 0x50, 0x1a, 0xe8, 0xbd, 0x02, 0x40, 0x25, 0xbe,
  0xf5, 0x27, 0x13, 0x3b, 0xa6, 0xe6, 0xe4, 0xbe, 0x80, 0x61, 0x96, 0xbd,
  0xa4, 0xa6, 0xf6, 0xbd, 0x38, 0x3e, 0x1f, 0xbd, 0x9f, 0x3a, 0xce, 0xbe,
  0x30, 0x3f, 0x94, 0x3e, 0x0e, 0xcd, 0x84, 0xbe, 0xfb, 0x74, 0x78, 0x3d,
  0xf5, 0xc1, 0xb2, 0x3e, 0x44, 0x8a, 0x23, 0xbf, 0x23, 0xf6, 0xa6, 0x3d,
  0xa4, 0x99, 0xf3, 0x3d, 0x16, 0x5f, 0xe1, 0x3e, 0x9c, 0x9f, 0xdd, 0xbd,
  0x8b, 0x41, 0xc8, 0xbe, 0x75, 0xa7, 0x96, 0x3d, 0xfc, 0x49, 0xb2, 0x3d,
  0xd8, 0x83, 0x1a, 0xbf, 0x62, 0xa4, 0x88, 0xbe, 0x61, 0x8a, 0x67, 0x3d,
  0x9b, 0x7e, 0x04, 0xbf, 0xc4, 0x6e, 0xc1, 0x3d, 0x65, 0x26, 0xc8, 0xbe,
  0x00, 0xef, 0x44, 0xbd, 0xda, 0x2f, 0x70, 0xbe, 0xd4, 0x55, 0x02, 0xbf,
  0x04, 0x0b, 0x98, 0xbd, 0xd4, 0x98, 0xed, 0xbe, 0xd4, 0x54, 0xc6, 0x3d,
  0x16, 0x04, 0x21, 0x3e, 0xfd, 0x4c, 0xd9, 0xbe, 0x99, 0x2f, 0xa1, 0x3e,
  0xfd, 0x2e, 0x9c, 0x3e, 0x97, 0xcd, 0x57, 0xbe, 0x87, 0x7c, 0xe6, 0xbe,
  0x70, 0x67, 0x38, 0xbe, 0x6c, 0x11, 0x89, 0xbe, 0x06, 0x06, 0x97, 0xbe,
  0x14, 0x0c, 0x92, 0xbd, 0x44, 0xde, 0x6e, 0x3e, 0x44, 0x64, 0xa5, 0x3b,
  0x24, 0x32, 0xd4, 0x3d, 0xf7, 0x2e, 0x7b, 0xbf, 0x80, 0xd7, 0xb6, 0xbb,
  0xff, 0xad, 0xb3, 0x3e, 0x57, 0x42, 0x6d, 0xbf, 0xd8, 0x70, 0x3c, 0x3d,
  0xb0, 0x33, 0x07, 0xbf, 0xb2, 0xaa, 0x42, 0x3e, 0x96, 0x72, 0x55, 0x3f,
  0x82, 0x22, 0x9a, 0xbf, 0x8b, 0xbf, 0xc1, 0x3e, 0x9c, 0x35, 0x39, 0xc0,
  0x2e, 0x21, 0x16, 0x3e, 0xd9, 0x5c, 0x80, 0x3e, 0x10, 0x8d, 0x48, 0xbd,
  0x52, 0xe6, 0x9e, 0xbe, 0x96, 0x3f, 0x0a, 0xbe, 0xc8, 0x80, 0x1c, 0xbd,
  0xea, 0xf8, 0x9c, 0xbe, 0x3f, 0x3d, 0x9f, 0x3e, 0x2e, 0x74, 0x25, 0x3e,
  0xec, 0x46, 0x1a, 0xbe, 0x10, 0xb2, 0x7a, 0x3d, 0x71, 0x2c, 0x85, 0x3e,
  0x04, 0x2e, 0xb4, 0x3d, 0xd0, 0x26, 0x9a, 0x3c, 0x70, 0x42, 0x65, 0x3d,
  0xe0, 0xfe, 0xb2, 0xbd, 0x47, 0xac, 0xc8, 0xbe, 0x36, 0xd4, 0x02, 0xbe,
  0xa8, 0x70, 0x0c, 0xbe, 0x11, 0xa6, 0xbd, 0xbe, 0xc8, 0xce, 0x05, 0x3d,
  0x2b, 0x6b, 0x8d, 0xbe, 0x4c, 0xcf, 0xa7, 0x3d, 0x0b, 0xb5, 0x47, 0xbe,
  0x43, 0x68, 0xa8, 0xbd, 0xee, 0xdb, 0x6c, 0x3e, 0x70, 0x70, 0x6f, 0xba,
  0x4c, 0x9a, 0x5c, 0xbd, 0x07, 0xa0, 0xb4, 0x3e, 0x0b, 0x4b, 0x3b, 0xbe,
  0xed, 0x42, 0x8b, 0x3e, 0x9c, 0xa8, 0x3e, 0xbe, 0xa5, 0x2f, 0x93, 0xbf,
  0x0c, 0x3f, 0xba, 0xbd, 0xa8, 0x2c, 0x8c, 0xbf, 0x8a, 0x56, 0x47, 0x3e,
  0xab, 0x43, 0xac, 0x3e, 0x8c, 0x2a, 0x8d, 0xbf, 0xb0, 0x36, 0x5c, 0xbe,
  0xd7, 0xa6, 0x8b, 0xbe, 0x2a, 0x4d, 0x12, 0x3e, 0xe1, 0x55, 0x37, 0x3f,
  0xff, 0x3e, 0xb6, 0xbe, 0x5c, 0xa4, 0x8f, 0x3d, 0xf1, 0x54, 0xed, 0xbe,
  0x30, 0x9d, 0x2d, 0x3d, 0xac, 0x92, 0x90, 0xbe, 0x8d, 0xde, 0x59, 0x3c,
  0xe2, 0x8c, 0xa7, 0xbe, 0x55, 0x1c, 0x30, 0x3d, 0x46, 0x06, 0x1e, 0xbe,
  0xad, 0x66, 0x40, 0xbd, 0x88, 0x3c, 0xd5, 0x3c, 0x60, 0xdb, 0x69, 0x3c,
  0x92, 0xf7, 0x21, 0xbd, 0x30, 0xe1, 0xb0, 0xbe, 0x9e, 0x80, 0x61, 0xbe,
  0x1e, 0xcc, 0xa4, 0xbd, 0x00, 0x7d, 0x2f, 0xbd, 0x07, 0x00, 0xdd, 0xbd,
  0x56, 0xf5, 0xa9, 0xbe, 0xf7, 0xce, 0x7f, 0x3d, 0xa9, 0xcb, 0xaa, 0xbe,
  0xe4, 0xd6, 0x04, 0xbe, 0x6d, 0x52, 0x83, 0xbe, 0x00, 0xea, 0x33, 0x3c,
  0x18, 0x6e, 0x38, 0xbd, 0xd9, 0x21, 0x49, 0xbd, 0x36, 0x88, 0x78, 0x3e,
  0x27, 0x8b, 0x45, 0x3e, 0x9e, 0x14, 0x28, 0xbe, 0xca, 0x27, 0x4e, 0xbf,
  0xd7, 0xff, 0x8f, 0x3e, 0x0e, 0x97, 0x57, 0x3e, 0xb9, 0x38, 0xaa, 0xbd,
  0xa3, 0x78, 0xb6, 0x3e, 0xfe, 0xc2, 0x9b, 0xbe, 0x57, 0x68, 0x6d, 0xbe,
  0x13, 0xab, 0xac, 0xbe, 0xf8, 0x5c, 0x9f, 0xbe, 0x88, 0x06, 0x00, 0xbd,
  0x37, 0xa1, 0x30, 0x3e, 0xcd, 0x75, 0x46, 0x3e, 0xc4, 0xc9, 0xed, 0x3d,
  0xb3, 0x45, 0xc5, 0xbe, 0xa4, 0xac, 0xab, 0xbe, 0xe8, 0x0e, 0xb7, 0xbe,
  0x4c, 0xfa, 0x23, 0xbe, 0xb1, 0xe8, 0x38, 0xbe, 0x22, 0x30, 0xc0, 0xbe,
  0xd0, 0x21, 0xa6, 0x3c, 0x6f, 0x02, 0xa8, 0xbe, 0xc4, 0xb8, 0x05, 0xbf,
  0x13, 0xa7, 0x89, 0xbe, 0xf7, 0xf7, 0x3b, 0x3d, 0x86, 0xa1, 0x94, 0xbe,
  0x3e, 0xb9, 0x63, 0xbd, 0x33, 0x2b, 0x94, 0xbe, 0x40, 0x63, 0xb4, 0xbd,
  0xed, 0x53, 0xc7, 0xbe, 0x80, 0x99, 0x28, 0xbd, 0xa6, 0x31, 0xab, 0xbe,
  0x7c, 0x27, 0x9d, 0xbe, 0x6a, 0x9e, 0x91, 0xbe, 0x4a, 0xb9, 0x55, 0xbe,
  0x30, 0x01, 0xbc, 0xbe, 0xa8, 0x38, 0x1f, 0xbe, 0xb3, 0xd4, 0x31, 0x3e,
  0xe8, 0x72, 0x60, 0xbd, 0x4f, 0x28, 0xb1, 0x3d, 0x42, 0xeb, 0x74, 0x3e,
  0xe5, 0x7c, 0xfd, 0xbe, 0x16, 0xfa, 0xff, 0xff, 0x04, 0x00, 0x00, 0x00,
  0x50, 0x00, 0x00, 0x00, 0x28, 0xff, 0x9b, 0xbb, 0x02, 0xf0, 0x7a, 0x3e,
  0xb0, 0x6d, 0xf4, 0xbe, 0x25, 0x56, 0xc8, 0xbe, 0x4b, 0x4f, 0xca, 0xba,
  0xee, 0xc1, 0x2d, 0x3e, 0x85, 0x51, 0xc1, 0xbe, 0x7b, 0x0b, 0x24, 0xbf,
  0xdb, 0x12, 0x04, 0x3f, 0xd6, 0x7c, 0xe3, 0xbb, 0x30, 0x7a, 0x54, 0x3d,
  0xf8, 0xfa, 0x44, 0x3e, 0xb0, 0x27, 0xab, 0xbd, 0x09, 0x05, 0x2b, 0xbf,
  0x7f, 0x70, 0xad, 0xbe, 0x3d, 0x71, 0x29, 0x3f, 0x34, 0x08, 0x3c, 0xbe,
  0x04, 0x67, 0x23, 0xbe, 0xd9, 0x0f, 0xa1, 0x3e, 0xc1, 0x58, 0x36, 0xbe,
  0x72, 0xfa, 0xff, 0xff, 0x04, 0x00, 0x00, 0x00, 0x50, 0x00, 0x00, 0x00,
  0x27, 0x1d, 0x99, 0x3e, 0xfb, 0xba, 0x30, 0xbe, 0xbd, 0x2e, 0x10, 0x3f,
  0x58, 0xbb, 0x39, 0x3e, 0x3c, 0xff, 0x0a, 0xbb, 0x58, 0xd1, 0x69, 0x3e,
  0x54, 0x90, 0x7c, 0x3d, 0xbd, 0x5c, 0x07, 0x3e, 0x5b, 0x36, 0x74, 0xbe,
  0x8b, 0xb2, 0x17, 0xbe, 0x92, 0xe9, 0x90, 0x3e, 0x17, 0x69, 0x49, 0x3e,
  0x89, 0xd9, 0xac, 0x3e, 0x30, 0xcb, 0x86, 0xbe, 0xbd, 0x75, 0x54, 0x3e,
  0x6d, 0x3f, 0x9a, 0x3d, 0x4e, 0x2c, 0x07, 0x3f, 0xbc, 0xdf, 0x1a, 0x3e,
  0x99, 0x38, 0x78, 0xbe, 0x3c, 0x0b, 0xbb, 0xbe, 0xce, 0xfa, 0xff, 0xff,
  0x04, 0x00, 0x00, 0x00, 0x60, 0x04, 0x00, 0x00, 0x1f, 0xa6, 0x48, 0x3e,
  0x4d, 0xc1, 0xe7, 0xbe, 0x35, 0x08, 0x9e, 0xbe, 0x8d, 0x1a, 0xc7, 0x3e,
  0x7f, 0x0f, 0x11, 0x3f, 0xa5, 0x95, 0x1b, 0x3f, 0x79, 0xca, 0xb2, 0xbd,
  0x59, 0xac, 0x6f, 0xbe, 0xde, 0xb1, 0x1d, 0x3d, 0x21, 0x30, 0x43, 0xbe,
  0x25, 0x03, 0x13, 0xbe, 0x33, 0x46, 0x83, 0x3e, 0x29, 0xdc, 0x98, 0xbe,
  0x03, 0x98, 0xa1, 0xbd, 0x4d, 0x5d, 0x67, 0xbd, 0x26, 0xa2, 0x4b, 0xbe,
  0x6b, 0xf3, 0x81, 0xbe, 0x7a, 0x29, 0xb5, 0x3c, 0x41, 0x3b, 0xfc, 0xbd,
  0x53, 0x17, 0x2f, 0xbf, 0x80, 0xb7, 0x96, 0x3c, 0x19, 0xb2, 0x75, 0xbe,
  0x62, 0x65, 0x93, 0xbe, 0x2b, 0xd9, 0x2b, 0xbd, 0x4a, 0x04, 0xe9, 0x3c,
  0xa2, 0x4c, 0xa2, 0xbe, 0x69, 0x37, 0x76, 0x3d, 0x76, 0xfd, 0xa4, 0x3e,
  0xb0, 0x17, 0xb2, 0x3e, 0x60, 0x7a, 0xc6, 0x3d, 0x88, 0x17, 0x56, 0xbe,
  0x6a, 0x35, 0x3c, 0xbd, 0x23, 0x0c, 0x08, 0xbf, 0xf8, 0x10, 0x98, 0x3e,
  0xdb, 0xf6, 0x1b, 0xbe, 0x3b, 0x6b, 0xc6, 0x3e, 0x39, 0x70, 0x06, 0x3e,
  0xab, 0xd5, 0x00, 0x3f, 0x71, 0x75, 0x20, 0x3f, 0xfb, 0xce, 0x7c, 0xbd,
  0xb3, 0x9a, 0xad, 0x3e, 0xe4, 0x28, 0xd1, 0x3e, 0x22, 0x3e, 0xbf, 0x3c,
  0x7d, 0xc4, 0x7a, 0xbd, 0x18, 0xb4, 0x24, 0x3f, 0x74, 0xe9, 0x1c, 0x3c,
  0x29, 0x0d, 0xfd, 0x3e, 0x9e, 0x3d, 0xac, 0x3e, 0x70, 0xb9, 0x00, 0x3e,
  0xd4, 0x6b, 0xce, 0x3c, 0x50, 0x14, 0x20, 0x3e, 0x7e, 0x7e, 0xb9, 0xbd,
  0x45, 0x4d, 0x4f, 0xbe, 0xc1, 0x6e, 0x25, 0x3e, 0x83, 0x72, 0x6b, 0x3e,
  0x3b, 0xde, 0x19, 0xbe, 0xf9, 0x0e, 0x01, 0x3e, 0x4d, 0x6f, 0x06, 0x3e,
  0x8c, 0x9c, 0x86, 0x3e, 0x2a, 0x8d, 0x50, 0x3f, 0x77, 0x43, 0x78, 0x3f,
  0xf9, 0x45, 0x39, 0x3e, 0xe4, 0xb9, 0x52, 0x3e, 0x12, 0x59, 0x41, 0x3f,
  0xfe, 0xd0, 0x69, 0x3e, 0x68, 0x98, 0x70, 0xbe, 0x32, 0x53, 0x38, 0x3e,
  0xaf, 0x2d, 0x12, 0xbd, 0xdb, 0x24, 0x4c, 0xbe, 0x00, 0x99, 0x6b, 0xbe,
  0x21, 0xd7, 0xe2, 0xbe, 0x6a, 0x89, 0xcc, 0x3e, 0x9d, 0x10, 0x6e, 0x3e,
  0x8c, 0xec, 0x9b, 0x3e, 0x1f, 0x24, 0xb7, 0xbd, 0xa9, 0xf9, 0x7a, 0x3e,
  0xee, 0xab, 0xbd, 0x3b, 0xed, 0x9d, 0x81, 0xbd, 0xa3, 0x02, 0x19, 0xbe,
  0xa7, 0x02, 0xfd, 0x3d, 0x56, 0xcf, 0xaf, 0x3e, 0xf2, 0xc4, 0x94, 0x3d,
  0x17, 0x78, 0xbe, 0x3e, 0x93, 0xfa, 0x67, 0xbe, 0xf8, 0x8b, 0x51, 0x3e,
  0x3d, 0x9c, 0xac, 0x3e, 0x1e, 0xbe, 0x3e, 0xbd, 0x39, 0x80, 0xa7, 0x3e,
  0x0c, 0xe4, 0xa9, 0x3d, 0x3c, 0xd3, 0x89, 0xbe, 0xaf, 0x81, 0x76, 0xbe,
  0xb3, 0xa1, 0x4c, 0xbd, 0x7f, 0xa3, 0xb7, 0xbe, 0xc1, 0x17, 0x52, 0xbd,
  0x51, 0x72, 0x07, 0xbf, 0x16, 0x3a, 0x6b, 0xbc, 0x63, 0xa2, 0x8c, 0xbe,
  0xc0, 0xbd, 0x51, 0xbe, 0xaa, 0xb4, 0xd7, 0xbc, 0x49, 0x0b, 0xad, 0x3e,
  0x0b, 0x24, 0x82, 0x3f, 0x2a, 0x57, 0x6e, 0xbf, 0xf8, 0xfe, 0x37, 0x3e,
  0x4c, 0x1f, 0x57, 0x3e, 0xea, 0xca, 0x99, 0x3e, 0x7a, 0xf2, 0x12, 0xbc,
  0x01, 0xfc, 0xac, 0x3e, 0xf2, 0xc8, 0x04, 0xbf, 0x13, 0x5a, 0xfa, 0xbe,
  0x81, 0xb8, 0xc3, 0x3d, 0x2f, 0xc4, 0x9c, 0x3d, 0x48, 0xc7, 0xaf, 0xbe,
  0xba, 0x6f, 0x64, 0x3e, 0x7d, 0xf7, 0xc0, 0x3e, 0x03, 0xaa, 0xde, 0x3e,
  0x32, 0xba, 0xf7, 0xbe, 0x3e, 0xc2, 0xa6, 0xbe, 0x02, 0xa2, 0xe4, 0x3e,
  0x70, 0xc5, 0xa6, 0xbe, 0x8e, 0x89, 0x6d, 0x3e, 0x6e, 0xbe, 0xa4, 0xbb,
  0x7a, 0xad, 0xa2, 0x3e, 0x4e, 0x2a, 0xed, 0xbd, 0xa2, 0x98, 0x85, 0xbe,
  0xa9, 0xb3, 0xd5, 0xbe, 0xb5, 0x24, 0xdb, 0xbe, 0x48, 0xc8, 0xcf, 0x3d,
  0xd7, 0xfa, 0x4b, 0xbe, 0xda, 0xba, 0x4a, 0xbf, 0xac, 0x5f, 0x68, 0xbe,
  0xbb, 0xe1, 0x8b, 0x3e, 0xb0, 0xb5, 0xce, 0xbe, 0xde, 0x54, 0x1a, 0xbd,
  0xdc, 0x9c, 0xb3, 0x3c, 0x64, 0xf9, 0x89, 0x3e, 0x12, 0xab, 0x8d, 0xbe,
  0x3d, 0x7e, 0x37, 0x3e, 0x6d, 0x28, 0x9b, 0x3e, 0xf8, 0xaf, 0x5d, 0xbe,
  0x5a, 0x67, 0x10, 0x3e, 0x22, 0x50, 0x30, 0x3f, 0x67, 0xb2, 0x2a, 0xbd,
  0xba, 0xd3, 0x00, 0xbe, 0xf2, 0xdc, 0x07, 0x3e, 0x16, 0xb6, 0x99, 0x3e,
  0xb2, 0x7f, 0x4a, 0xbd, 0x66, 0x4f, 0x97, 0x3e, 0x63, 0x60, 0x72, 0xbe,
  0x7a, 0x34, 0x87, 0xbf, 0x21, 0x40, 0x7b, 0x3d, 0xda, 0xe3, 0xe2, 0x3e,
  0xde, 0x51, 0x7f, 0xbf, 0xf9, 0x98, 0xc3, 0xbd, 0xe3, 0x8d, 0xf6, 0x3d,
  0xac, 0xa9, 0x23, 0x3e, 0x95, 0x6d, 0x71, 0x3f, 0x24, 0x09, 0xf9, 0x3e,
  0x8d, 0xa8, 0x58, 0xbe, 0x88, 0x3d, 0x05, 0x3e, 0x15, 0x1a, 0x63, 0x3d,
  0xc5, 0xd7, 0xc6, 0xbe, 0xb1, 0xc6, 0x6e, 0xbe, 0xf8, 0x2e, 0xc3, 0x3d,
  0x1e, 0x2a, 0x98, 0x3d, 0xb2, 0x9b, 0x41, 0xbd, 0x0f, 0xf0, 0x8f, 0x3e,
  0x28, 0x2e, 0xb7, 0x3e, 0xba, 0x4e, 0x8b, 0x3c, 0x40, 0x11, 0x8b, 0xbe,
  0xeb, 0xc2, 0x17, 0xbd, 0x92, 0xcd, 0xff, 0x3d, 0x9f, 0x66, 0x06, 0x3e,
  0xf0, 0x2a, 0x02, 0x3f, 0x13, 0x58, 0x53, 0x3f, 0xb6, 0x7e, 0xc0, 0x3e,
  0xdf, 0xeb, 0xb4, 0x3d, 0x6a, 0x22, 0x05, 0x3f, 0xd5, 0xf8, 0x37, 0x3f,
  0x44, 0x42, 0x61, 0x3e, 0x1d, 0x7a, 0xa6, 0x3e, 0x7a, 0xa4, 0xfe, 0x3e,
  0xb6, 0x08, 0x76, 0x3c, 0xa1, 0x2f, 0xf3, 0xbe, 0x42, 0x63, 0x82, 0x3d,
  0xe0, 0x7c, 0xbb, 0xbe, 0xbc, 0x95, 0x99, 0xbe, 0xf3, 0xb4, 0xa5, 0x3e,
  0x11, 0x03, 0x8a, 0x3e, 0x70, 0x77, 0x81, 0xbe, 0xba, 0xd8, 0x15, 0xbe,
  0x19, 0xf7, 0xc3, 0xbd, 0xf1, 0x91, 0x9b, 0x3e, 0x78, 0x2b, 0xa1, 0xbe,
  0x98, 0x29, 0xdf, 0xbd, 0x05, 0x86, 0x08, 0xbe, 0xe4, 0x53, 0xc5, 0x3d,
  0xdf, 0xe1, 0x40, 0x3e, 0x2a, 0xbc, 0x36, 0xbe, 0xb4, 0xc5, 0xc1, 0xbe,
  0x49, 0x80, 0xc6, 0x3e, 0x9b, 0x9d, 0x97, 0x3d, 0x99, 0xde, 0x92, 0x3c,
  0x92, 0x43, 0x58, 0xbd, 0x67, 0x8b, 0x5c, 0xbe, 0x1d, 0xf5, 0x43, 0xbe,
  0xd1, 0x02, 0x01, 0x3f, 0xcf, 0x60, 0xbe, 0x3e, 0x92, 0xa2, 0x5d, 0xbd,
  0xb7, 0x79, 0x2f, 0xbe, 0x6b, 0xcc, 0x4f, 0x3e, 0xa1, 0xa0, 0xb8, 0xbe,
  0xed, 0x72, 0xfe, 0x3d, 0xf3, 0x0c, 0xec, 0x3e, 0xa9, 0x07, 0x95, 0xbe,
  0x06, 0xa5, 0x1f, 0xbe, 0x7b, 0xff, 0x07, 0x3e, 0x8f, 0xb8, 0xe6, 0xbe,
  0xf3, 0xc6, 0x61, 0x3e, 0x17, 0x82, 0x55, 0x3e, 0xb4, 0xd2, 0xc1, 0xbb,
  0xcc, 0xdf, 0x8f, 0x3d, 0xf6, 0xda, 0xd2, 0xbe, 0x92, 0x0c, 0x86, 0xbd,
  0x21, 0xc5, 0x2d, 0xbd, 0x68, 0xf5, 0x97, 0x3d, 0xad, 0xce, 0xdb, 0xbd,
  0xa5, 0xd3, 0x80, 0x3e, 0x83, 0x57, 0x83, 0xbe, 0x0f, 0xbc, 0x0c, 0xbf,
  0x34, 0xba, 0xab, 0xbc, 0x27, 0x07, 0xac, 0xbe, 0x41, 0x13, 0xb7, 0xbe,
  0x97, 0xe3, 0x04, 0x3e, 0x2a, 0xcb, 0x61, 0xbc, 0xb2, 0x93, 0x10, 0xbe,
  0x7d, 0x03, 0x44, 0x3e, 0x55, 0x3c, 0x7b, 0xbe, 0x12, 0xbd, 0x8d, 0xbe,
  0x71, 0x21, 0x81, 0x3e, 0x0d, 0x15, 0x20, 0xbe, 0xc8, 0xeb, 0x36, 0xbd,
  0x64, 0x07, 0xf5, 0x3e, 0x96, 0x2f, 0x82, 0x3b, 0x09, 0xb7, 0xff, 0xbe,
  0xf7, 0xb9, 0x12, 0xbe, 0xc8, 0x1f, 0x92, 0xbd, 0x2c, 0x76, 0xcd, 0xbd,
  0xd9, 0x98, 0x01, 0xbe, 0x35, 0xd0, 0xcd, 0xbe, 0x0c, 0xdf, 0x32, 0xbe,
  0x2c, 0x74, 0xee, 0x3d, 0x9c, 0x3f, 0x82, 0x3e, 0x11, 0x03, 0x0b, 0x3e,
  0xe0, 0x01, 0xa5, 0x3b, 0xd2, 0xeb, 0x65, 0xbd, 0x8a, 0x3a, 0x11, 0xbf,
  0x86, 0xb8, 0x83, 0xbe, 0x03, 0xe1, 0xa0, 0x3c, 0x69, 0x34, 0x5b, 0x3e,
  0xd5, 0x08, 0x88, 0x3e, 0xbf, 0xb7, 0x85, 0xbe, 0x13, 0x30, 0x9c, 0xbe,
  0x4c, 0x61, 0xca, 0xbd, 0x4e, 0x85, 0x06, 0xbc, 0x52, 0x1b, 0xe6, 0xbd,
  0xab, 0xc1, 0xd9, 0x3d, 0x06, 0x84, 0x24, 0x3e, 0xb1, 0xdd, 0xbe, 0xbd,
  0x5f, 0xe0, 0x50, 0xbd, 0x21, 0xcd, 0x87, 0xbe, 0x59, 0x7c, 0x99, 0x3d,
  0x94, 0x10, 0xaa, 0xbe, 0xa7, 0xcb, 0x4e, 0xbd, 0x4b, 0x83, 0x05, 0x3e,
  0xc3, 0x37, 0xa9, 0x3e, 0x7d, 0x3a, 0x7d, 0xbe, 0xe0, 0x42, 0x09, 0xbe,
  0xa5, 0xb5, 0x0d, 0x3e, 0x54, 0x86, 0x08, 0xbe, 0x75, 0x16, 0x13, 0xbe,
  0x3a, 0xff, 0xff, 0xff, 0x04, 0x00, 0x00, 0x00, 0x08, 0x00, 0x00, 0x00,
  0x74, 0x5d, 0x12, 0x3f, 0x03, 0xa0, 0x10, 0x3c, 0x4e, 0xff, 0xff, 0xff,
  0x04, 0x00, 0x00, 0x00, 0x28, 0x00, 0x00, 0x00, 0x92, 0x5c, 0x33, 0xbe,
  0x00, 0x00, 0x00, 0x00, 0x65, 0x75, 0xb7, 0xbe, 0x00, 0x00, 0x00, 0x00,
  0x65, 0xd3, 0x83, 0x3e, 0x62, 0x4f, 0xd1, 0xbf, 0x00, 0x00, 0x00, 0x00,
  0x8e, 0x2a, 0xb0, 0x3e, 0x00, 0x00, 0x00, 0x00, 0xc2, 0x72, 0x8d, 0xbe,
  0x82, 0xff, 0xff, 0xff, 0x04, 0x00, 0x00, 0x00, 0x70, 0x00, 0x00, 0x00,
  0x49, 0x8e, 0xb1, 0xbe, 0xe1, 0xca, 0xc3, 0x3e, 0xe1, 0xf7, 0xfc, 0xbe,
  0xd4, 0xb8, 0xdb, 0xbf, 0x41, 0x68, 0x51, 0x40, 0x0b, 0xc0, 0xbd, 0xbf,
  0x7f, 0xfa, 0xac, 0xbf, 0xc8, 0x13, 0xe8, 0xbe, 0xb4, 0x03, 0x9b, 0x3e,
  0x09, 0xcf, 0x14, 0xbf, 0x47, 0xed, 0xfa, 0x3e, 0xa2, 0xee, 0xcd, 0xbd,
  0xf1, 0x6b, 0xd6, 0x3f, 0xaf, 0x36, 0x59, 0xbe, 0xd3, 0x02, 0x35, 0xbe,
  0x5b, 0x86, 0x25, 0xbf, 0xc4, 0x16, 0xb9, 0xbd, 0x00, 0x00, 0x00, 0x00,
  0x00, 0x00, 0x00, 0x00, 0x0c, 0x66, 0x64, 0xbe, 0x14, 0x55, 0x67, 0x3f,
  0x00, 0x00, 0x00, 0x00, 0x3c, 0x2b, 0x08, 0xbf, 0x67, 0xaf, 0x2c, 0xbf,
  0x3f, 0x6d, 0xb7, 0xbe, 0x03, 0x77, 0xac, 0xbd, 0xf5, 0xd9, 0x71, 0xbe,
  0x7f, 0x67, 0x90, 0xbe, 0x00, 0x00, 0x06, 0x00, 0x08, 0x00, 0x04, 0x00,
  0x06, 0x00, 0x00, 0x00, 0x04, 0x00, 0x00, 0x00, 0x28, 0x00, 0x00, 0x00,
  0xdf, 0x6f, 0xf2, 0x3d, 0x03, 0x78, 0xaf, 0xbe, 0x29, 0x75, 0x04, 0x3f,
  0x2a, 0x4f, 0xa9, 0xbd, 0xe4, 0x39, 0xa2, 0xbe, 0x10, 0xfb, 0x8c, 0xbe,
  0x70, 0x4f, 0xc3, 0x3d, 0x6d, 0x4b, 0x72, 0xbe, 0x83, 0xf9, 0x8a, 0xbe,
  0x2e, 0x42, 0x12, 0xbe, 0xf0, 0xf9, 0xff, 0xff, 0xf4, 0xf9, 0xff, 0xff,
  0x0f, 0x00, 0x00, 0x00, 0x4d, 0x4c, 0x49, 0x52, 0x20, 0x43, 0x6f, 0x6e,
  0x76, 0x65, 0x72, 0x74, 0x65, 0x64, 0x2e, 0x00, 0x01, 0x00, 0x00, 0x00,
  0x14, 0x00, 0x00, 0x00, 0x00, 0x00, 0x0e, 0x00, 0x18, 0x00, 0x14, 0x00,
  0x10, 0x00, 0x0c, 0x00, 0x08, 0x00, 0x04, 0x00, 0x0e, 0x00, 0x00, 0x00,
  0x14, 0x00, 0x00, 0x00, 0x1c, 0x00, 0x00, 0x00, 0x14, 0x01, 0x00, 0x00,
  0x18, 0x01, 0x00, 0x00, 0x1c, 0x01, 0x00, 0x00, 0x04, 0x00, 0x00, 0x00,
  0x6d, 0x61, 0x69, 0x6e, 0x00, 0x00, 0x00, 0x00, 0x04, 0x00, 0x00, 0x00,
  0xbc, 0x00, 0x00, 0x00, 0x74, 0x00, 0x00, 0x00, 0x3c, 0x00, 0x00, 0x00,
  0x04, 0x00, 0x00, 0x00, 0x62, 0xff, 0xff, 0xff, 0x10, 0x00, 0x00, 0x00,
  0x00, 0x00, 0x00, 0x08, 0x10, 0x00, 0x00, 0x00, 0x14, 0x00, 0x00, 0x00,
  0x52, 0xff, 0xff, 0xff, 0x00, 0x00, 0x00, 0x01, 0x01, 0x00, 0x00, 0x00,
  0x0c, 0x00, 0x00, 0x00, 0x03, 0x00, 0x00, 0x00, 0x0b, 0x00, 0x00, 0x00,
  0x08, 0x00, 0x00, 0x00, 0x02, 0x00, 0x00, 0x00, 0x96, 0xff, 0xff, 0xff,
  0x10, 0x00, 0x00, 0x00, 0x00, 0x00, 0x00, 0x08, 0x10, 0x00, 0x00, 0x00,
  0x14, 0x00, 0x00, 0x00, 0x86, 0xff, 0xff, 0xff, 0x00, 0x00, 0x00, 0x01,
  0x01, 0x00, 0x00, 0x00, 0x0b, 0x00, 0x00, 0x00, 0x03, 0x00, 0x00, 0x00,
  0x0a, 0x00, 0x00, 0x00, 0x07, 0x00, 0x00, 0x00, 0x03, 0x00, 0x00, 0x00,
  0xca, 0xff, 0xff, 0xff, 0x10, 0x00, 0x00, 0x00, 0x00, 0x00, 0x00, 0x08,
  0x10, 0x00, 0x00, 0x00, 0x14, 0x00, 0x00, 0x00, 0xba, 0xff, 0xff, 0xff,
  0x00, 0x00, 0x00, 0x01, 0x01, 0x00, 0x00, 0x00, 0x0a, 0x00, 0x00, 0x00,
  0x03, 0x00, 0x00, 0x00, 0x09, 0x00, 0x00, 0x00, 0x06, 0x00, 0x00, 0x00,
  0x04, 0x00, 0x00, 0x00, 0x00, 0x00, 0x0e, 0x00, 0x16, 0x00, 0x00, 0x00,
  0x10, 0x00, 0x0c, 0x00, 0x0b, 0x00, 0x04, 0x00, 0x0e, 0x00, 0x00, 0x00,
  0x18, 0x00, 0x00, 0x00, 0x00, 0x00, 0x00, 0x08, 0x18, 0x00, 0x00, 0x00,
  0x1c, 0x00, 0x00, 0x00, 0x00, 0x00, 0x06, 0x00, 0x08, 0x00, 0x07, 0x00,
  0x06, 0x00, 0x00, 0x00, 0x00, 0x00, 0x00, 0x01, 0x01, 0x00, 0x00, 0x00,
  0x09, 0x00, 0x00, 0x00, 0x03, 0x00, 0x00, 0x00, 0x00, 0x00, 0x00, 0x00,
  0x05, 0x00, 0x00, 0x00, 0x01, 0x00, 0x00, 0x00, 0x01, 0x00, 0x00, 0x00,
  0x0c, 0x00, 0x00, 0x00, 0x01, 0x00, 0x00, 0x00, 0x00, 0x00, 0x00, 0x00,
  0x0d, 0x00, 0x00, 0x00, 0x84, 0x04, 0x00, 0x00, 0x20, 0x04, 0x00, 0x00,
  0xbc, 0x03, 0x00, 0x00, 0x68, 0x03, 0x00, 0x00, 0x14, 0x03, 0x00, 0x00,
  0xd0, 0x02, 0x00, 0x00, 0x88, 0x02, 0x00, 0x00, 0x40, 0x02, 0x00, 0x00,
  0xf8, 0x01, 0x00, 0x00, 0x74, 0x01, 0x00, 0x00, 0xe8, 0x00, 0x00, 0x00,
  0x5c, 0x00, 0x00, 0x00, 0x04, 0x00, 0x00, 0x00, 0xc4, 0xfb, 0xff, 0xff,
  0x14, 0x00, 0x00, 0x00, 0x1c, 0x00, 0x00, 0x00, 0x1c, 0x00, 0x00, 0x00,
  0x0d, 0x00, 0x00, 0x00, 0x34, 0x00, 0x00, 0x00, 0x02, 0x00, 0x00, 0x00,
  0xff, 0xff, 0xff, 0xff, 0x1c, 0x00, 0x00, 0x00, 0xb0, 0xfb, 0xff, 0xff,
  0x19, 0x00, 0x00, 0x00, 0x53, 0x74, 0x61, 0x74, 0x65, 0x66, 0x75, 0x6c,
  0x50, 0x61, 0x72, 0x74, 0x69, 0x74, 0x69, 0x6f, 0x6e, 0x65, 0x64, 0x43,
  0x61, 0x6c, 0x6c, 0x3a, 0x30, 0x00, 0x00, 0x00, 0x02, 0x00, 0x00, 0x00,
  0x01, 0x00, 0x00, 0x00, 0x1c, 0x00, 0x00, 0x00, 0x18, 0xfc, 0xff, 0xff,
  0x14, 0x00, 0x00, 0x00, 0x1c, 0x00, 0x00, 0x00, 0x1c, 0x00, 0x00, 0x00,
  0x0c, 0x00, 0x00, 0x00, 0x68, 0x00, 0x00, 0x00, 0x02, 0x00, 0x00, 0x00,
  0xff, 0xff, 0xff, 0xff, 0x0a, 0x00, 0x00, 0x00, 0x04, 0xfc, 0xff, 0xff,
  0x4c, 0x00, 0x00, 0x00, 0x73, 0x65, 0x71, 0x75, 0x65, 0x6e, 0x74, 0x69,
  0x61, 0x6c, 0x2f, 0x64, 0x65, 0x6e, 0x73, 0x65, 0x5f, 0x32, 0x2f, 0x4d,
  0x61, 0x74, 0x4d, 0x75, 0x6c, 0x3b, 0x73, 0x65, 0x71, 0x75, 0x65, 0x6e,
  0x74, 0x69, 0x61, 0x6c, 0x2f, 0x64, 0x65, 0x6e, 0x73, 0x65, 0x5f, 0x32,
  0x2f, 0x52, 0x65, 0x6c, 0x75, 0x3b, 0x73, 0x65, 0x71, 0x75, 0x65, 0x6e,
  0x74, 0x69, 0x61, 0x6c, 0x2f, 0x64, 0x65, 0x6e, 0x73, 0x65, 0x5f, 0x32,
  0x2f, 0x42, 0x69, 0x61, 0x73, 0x41, 0x64, 0x64, 0x00, 0x00, 0x00, 0x00,
  0x02, 0x00, 0x00, 0x00, 0x01, 0x00, 0x00, 0x00, 0x0a, 0x00, 0x00, 0x00,
  0xa0, 0xfc, 0xff, 0xff, 0x14, 0x00, 0x00, 0x00, 0x1c, 0x00, 0x00, 0x00,
  0x1c, 0x00, 0x00, 0x00, 0x0b, 0x00, 0x00, 0x00, 0x68, 0x00, 0x00, 0x00,
  0x02, 0x00, 0x00, 0x00, 0xff, 0xff, 0xff, 0xff, 0x02, 0x00, 0x00, 0x00,
  0x8c, 0xfc, 0xff, 0xff, 0x4c, 0x00, 0x00, 0x00, 0x73, 0x65, 0x71, 0x75,
  0x65, 0x6e, 0x74, 0x69, 0x61, 0x6c, 0x2f, 0x64, 0x65, 0x6e, 0x73, 0x65,
  0x5f, 0x31, 0x2f, 0x4d, 0x61, 0x74, 0x4d, 0x75, 0x6c, 0x3b, 0x73, 0x65,
  0x71, 0x75, 0x65, 0x6e, 0x74, 0x69, 0x61, 0x6c, 0x2f, 0x64, 0x65, 0x6e,
  0x73, 0x65, 0x5f, 0x31, 0x2f, 0x52, 0x65, 0x6c, 0x75, 0x3b, 0x73, 0x65,
  0x71, 0x75, 0x65, 0x6e, 0x74, 0x69, 0x61, 0x6c, 0x2f, 0x64, 0x65, 0x6e,
  0x73, 0x65, 0x5f, 0x31, 0x2f, 0x42, 0x69, 0x61, 0x73, 0x41, 0x64, 0x64,
  0x00, 0x00, 0x00, 0x00, 0x02, 0x00, 0x00, 0x00, 0x01, 0x00, 0x00, 0x00,
  0x02, 0x00, 0x00, 0x00, 0x28, 0xfd, 0xff, 0xff, 0x14, 0x00, 0x00, 0x00,
  0x1c, 0x00, 0x00, 0x00, 0x1c, 0x00, 0x00, 0x00, 0x0a, 0x00, 0x00, 0x00,
  0x60, 0x00, 0x00, 0x00, 0x02, 0x00, 0x00, 0x00, 0xff, 0xff, 0xff, 0xff,
  0x0a, 0x00, 0x00, 0x00, 0x14, 0xfd, 0xff, 0xff, 0x46, 0x00, 0x00, 0x00,
  0x73, 0x65, 0x71, 0x75, 0x65, 0x6e, 0x74, 0x69, 0x61, 0x6c, 0x2f, 0x64,
  0x65, 0x6e, 0x73, 0x65, 0x2f, 0x4d, 0x61, 0x74, 0x4d, 0x75, 0x6c, 0x3b,
  0x73, 0x65, 0x71, 0x75, 0x65, 0x6e, 0x74, 0x69, 0x61, 0x6c, 0x2f, 0x64,
  0x65, 0x6e, 0x73, 0x65, 0x2f, 0x52, 0x65, 0x6c, 0x75, 0x3b, 0x73, 0x65,
  0x71, 0x75, 0x65, 0x6e, 0x74, 0x69, 0x61, 0x6c, 0x2f, 0x64, 0x65, 0x6e,
  0x73, 0x65, 0x2f, 0x42, 0x69, 0x61, 0x73, 0x41, 0x64, 0x64, 0x00, 0x00,
  0x02, 0x00, 0x00, 0x00, 0x01, 0x00, 0x00, 0x00, 0x0a, 0x00, 0x00, 0x00,
  0x02, 0xfe, 0xff, 0xff, 0x10, 0x00, 0x00, 0x00, 0x10, 0x00, 0x00, 0x00,
  0x09, 0x00, 0x00, 0x00, 0x28, 0x00, 0x00, 0x00, 0x84, 0xfd, 0xff, 0xff,
  0x19, 0x00, 0x00, 0x00, 0x73, 0x65, 0x71, 0x75, 0x65, 0x6e, 0x74, 0x69,
  0x61, 0x6c, 0x2f, 0x64, 0x65, 0x6e, 0x73, 0x65, 0x5f, 0x33, 0x2f, 0x4d,
  0x61, 0x74, 0x4d, 0x75, 0x6c, 0x00, 0x00, 0x00, 0x02, 0x00, 0x00, 0x00,
  0x1c, 0x00, 0x00, 0x00, 0x0a, 0x00, 0x00, 0x00, 0x46, 0xfe, 0xff, 0xff,
  0x10, 0x00, 0x00, 0x00, 0x10, 0x00, 0x00, 0x00, 0x08, 0x00, 0x00, 0x00,
  0x28, 0x00, 0x00, 0x00, 0xc8, 0xfd, 0xff, 0xff, 0x19, 0x00, 0x00, 0x00,
  0x73, 0x65, 0x71, 0x75, 0x65, 0x6e, 0x74, 0x69, 0x61, 0x6c, 0x2f, 0x64,
  0x65, 0x6e, 0x73, 0x65, 0x5f, 0x32, 0x2f, 0x4d, 0x61, 0x74, 0x4d, 0x75,
  0x6c, 0x00, 0x00, 0x00, 0x02, 0x00, 0x00, 0x00, 0x0a, 0x00, 0x00, 0x00,
  0x02, 0x00, 0x00, 0x00, 0x8a, 0xfe, 0xff, 0xff, 0x10, 0x00, 0x00, 0x00,
  0x10, 0x00, 0x00, 0x00, 0x07, 0x00, 0x00, 0x00, 0x28, 0x00, 0x00, 0x00,
  0x0c, 0xfe, 0xff, 0xff, 0x19, 0x00, 0x00, 0x00, 0x73, 0x65, 0x71, 0x75,
  0x65, 0x6e, 0x74, 0x69, 0x61, 0x6c, 0x2f, 0x64, 0x65, 0x6e, 0x73, 0x65,
  0x5f, 0x31, 0x2f, 0x4d, 0x61, 0x74, 0x4d, 0x75, 0x6c, 0x00, 0x00, 0x00,
  0x02, 0x00, 0x00, 0x00, 0x02, 0x00, 0x00, 0x00, 0x0a, 0x00, 0x00, 0x00,
  0xce, 0xfe, 0xff, 0xff, 0x10, 0x00, 0x00, 0x00, 0x10, 0x00, 0x00, 0x00,
  0x06, 0x00, 0x00, 0x00, 0x24, 0x00, 0x00, 0x00, 0x50, 0xfe, 0xff, 0xff,
  0x17, 0x00, 0x00, 0x00, 0x73, 0x65, 0x71, 0x75, 0x65, 0x6e, 0x74, 0x69,
  0x61, 0x6c, 0x2f, 0x64, 0x65, 0x6e, 0x73, 0x65, 0x2f, 0x4d, 0x61, 0x74,
  0x4d, 0x75, 0x6c, 0x00, 0x02, 0x00, 0x00, 0x00, 0x0a, 0x00, 0x00, 0x00,
  0x1c, 0x00, 0x00, 0x00, 0x0e, 0xff, 0xff, 0xff, 0x10, 0x00, 0x00, 0x00,
  0x10, 0x00, 0x00, 0x00, 0x05, 0x00, 0x00, 0x00, 0x38, 0x00, 0x00, 0x00,
  0x90, 0xfe, 0xff, 0xff, 0x29, 0x00, 0x00, 0x00, 0x73, 0x65, 0x71, 0x75,
  0x65, 0x6e, 0x74, 0x69, 0x61, 0x6c, 0x2f, 0x64, 0x65, 0x6e, 0x73, 0x65,
  0x5f, 0x31, 0x2f, 0x42, 0x69, 0x61, 0x73, 0x41, 0x64, 0x64, 0x2f, 0x52,
  0x65, 0x61, 0x64, 0x56, 0x61, 0x72, 0x69, 0x61, 0x62, 0x6c, 0x65, 0x4f,
  0x70, 0x00, 0x00, 0x00, 0x01, 0x00, 0x00, 0x00, 0x02, 0x00, 0x00, 0x00,
  0x5e, 0xff, 0xff, 0xff, 0x10, 0x00, 0x00, 0x00, 0x10, 0x00, 0x00, 0x00,
  0x04, 0x00, 0x00, 0x00, 0x38, 0x00, 0x00, 0x00, 0xe0, 0xfe, 0xff, 0xff,
  0x29, 0x00, 0x00, 0x00, 0x73, 0x65, 0x71, 0x75, 0x65, 0x6e, 0x74, 0x69,
  0x61, 0x6c, 0x2f, 0x64, 0x65, 0x6e, 0x73, 0x65, 0x5f, 0x32, 0x2f, 0x42,
  0x69, 0x61, 0x73, 0x41, 0x64, 0x64, 0x2f, 0x52, 0x65, 0x61, 0x64, 0x56,
  0x61, 0x72, 0x69, 0x61, 0x62, 0x6c, 0x65, 0x4f, 0x70, 0x00, 0x00, 0x00,
  0x01, 0x00, 0x00, 0x00, 0x0a, 0x00, 0x00, 0x00, 0xae, 0xff, 0xff, 0xff,
  0x10, 0x00, 0x00, 0x00, 0x10, 0x00, 0x00, 0x00, 0x03, 0x00, 0x00, 0x00,
  0x38, 0x00, 0x00, 0x00, 0x30, 0xff, 0xff, 0xff, 0x29, 0x00, 0x00, 0x00,
  0x73, 0x65, 0x71, 0x75, 0x65, 0x6e, 0x74, 0x69, 0x61, 0x6c, 0x2f, 0x64,
  0x65, 0x6e, 0x73, 0x65, 0x5f, 0x33, 0x2f, 0x42, 0x69, 0x61, 0x73, 0x41,
  0x64, 0x64, 0x2f, 0x52, 0x65, 0x61, 0x64, 0x56, 0x61, 0x72, 0x69, 0x61,
  0x62, 0x6c, 0x65, 0x4f, 0x70, 0x00, 0x00, 0x00, 0x01, 0x00, 0x00, 0x00,
  0x1c, 0x00, 0x00, 0x00, 0x00, 0x00, 0x0e, 0x00, 0x14, 0x00, 0x10, 0x00,
  0x00, 0x00, 0x0c, 0x00, 0x08, 0x00, 0x04, 0x00, 0x0e, 0x00, 0x00, 0x00,
  0x10, 0x00, 0x00, 0x00, 0x10, 0x00, 0x00, 0x00, 0x02, 0x00, 0x00, 0x00,
  0x34, 0x00, 0x00, 0x00, 0x90, 0xff, 0xff, 0xff, 0x27, 0x00, 0x00, 0x00,
  0x73, 0x65, 0x71, 0x75, 0x65, 0x6e, 0x74, 0x69, 0x61, 0x6c, 0x2f, 0x64,
  0x65, 0x6e, 0x73, 0x65, 0x2f, 0x42, 0x69, 0x61, 0x73, 0x41, 0x64, 0x64,
  0x2f, 0x52, 0x65, 0x61, 0x64, 0x56, 0x61, 0x72, 0x69, 0x61, 0x62, 0x6c,
  0x65, 0x4f, 0x70, 0x00, 0x01, 0x00, 0x00, 0x00, 0x0a, 0x00, 0x00, 0x00,
  0x14, 0x00, 0x18, 0x00, 0x14, 0x00, 0x00, 0x00, 0x10, 0x00, 0x0c, 0x00,
  0x08, 0x00, 0x00, 0x00, 0x00, 0x00, 0x04, 0x00, 0x14, 0x00, 0x00, 0x00,
  0x14, 0x00, 0x00, 0x00, 0x20, 0x00, 0x00, 0x00, 0x20, 0x00, 0x00, 0x00,
  0x01, 0x00, 0x00, 0x00, 0x3c, 0x00, 0x00, 0x00, 0x02, 0x00, 0x00, 0x00,
  0xff, 0xff, 0xff, 0xff, 0x1c, 0x00, 0x00, 0x00, 0x04, 0x00, 0x04, 0x00,
  0x04, 0x00, 0x00, 0x00, 0x1d, 0x00, 0x00, 0x00, 0x73, 0x65, 0x72, 0x76,
  0x69, 0x6e, 0x67, 0x5f, 0x64, 0x65, 0x66, 0x61, 0x75, 0x6c, 0x74, 0x5f,
  0x64, 0x65, 0x6e, 0x73, 0x65, 0x5f, 0x69, 0x6e, 0x70, 0x75, 0x74, 0x3a,
  0x30, 0x00, 0x00, 0x00, 0x02, 0x00, 0x00, 0x00, 0x01, 0x00, 0x00, 0x00,
  0x1c, 0x00, 0x00, 0x00, 0x01, 0x00, 0x00, 0x00, 0x10, 0x00, 0x00, 0x00,
  0x0c, 0x00, 0x0c, 0x00, 0x0b, 0x00, 0x00, 0x00, 0x00, 0x00, 0x04, 0x00,
  0x0c, 0x00, 0x00, 0x00, 0x09, 0x00, 0x00, 0x00, 0x00, 0x00, 0x00, 0x09
};

unsigned int autoencoder_model_data_len = 4824;